<blk> 0
<sos/eos> 1
<unk> 2
▁là 3
▁ 4
▁và 5
▁có 6
▁của 7
▁một 8
▁các 9
▁không 10
▁được 11
▁trong 12
▁người 13
▁cho 14
▁với 15
▁những 16
▁thì 17
▁hai 18
▁cái 19
▁đã 20
▁này 21
▁mà 22
n 23
▁để 24
▁đó 25
▁em 26
▁năm 27
▁cũng 28
▁ở 29
▁như 30
▁công 31
▁về 32
▁ra 33
▁đến 34
▁sẽ 35
▁tôi 36
▁bạn 37
▁mình 38
▁làm 39
▁thể 40
▁khi 41
▁chúng 42
i 43
▁anh 44
▁nhiều 45
▁đi 46
▁mươi 47
▁ta 48
▁từ 49
t 50
▁lại 51
▁phải 52
▁ba 53
▁tại 54
▁việt 55
▁nam 56
▁trăm 57
▁vào 58
▁nhà 59
▁mười 60
▁ông 61
▁số 62
▁quốc 63
▁đây 64
▁sự 65
▁thành 66
m 67
▁con 68
▁rất 69
▁ngày 70
▁việc 71
▁bị 72
▁thế 73
▁nói 74
▁trên 75
▁học 76
▁nước 77
▁chính 78
ng 79
▁đầu 80
▁dân 81
▁nó 82
▁trung 83
▁nhân 84
▁nhưng 85
▁động 86
▁theo 87
▁còn 88
▁hiện 89
▁sau 90
▁đồng 91
▁hơn 92
▁quan 93
▁chỉ 94
▁rồi 95
▁gia 96
▁trường 97
▁giờ 98
▁bộ 99
▁sinh 100
▁đang 101
▁cả 102
▁trình 103
▁vị 104
▁vì 105
▁hội 106
▁mới 107
▁tháng 108
▁nay 109
▁biết 110
▁thời 111
▁nào 112
▁họ 113
▁điều 114
▁thông 115
▁nhất 116
▁thực 117
▁thấy 118
▁phần 119
▁cùng 120
▁gì 121
▁phát 122
▁qua 123
▁định 124
▁tin 125
▁cơ 126
u 127
▁hàng 128
▁hình 129
▁viên 130
▁tới 131
▁trước 132
c 133
a 134
▁chủ 135
▁cuộc 136
▁lên 137
o 138
▁rằng 139
▁tiếp 140
▁hợp 141
▁điểm 142
▁nên 143
▁tự 144
▁cao 145
▁a 146
▁sản 147
▁vậy 148
▁bốn 149
▁đối 150
▁lý 151
▁do 152
▁sáu 153
▁khác 154
▁đại 155
▁hay 156
▁tế 157
▁cách 158
▁đề 159
▁hành 160
▁nhận 161
▁tư 162
▁tình 163
▁chín 164
▁mỹ 165
▁ý 166
▁chức 167
▁tám 168
▁quyền 169
▁nghiệp 170
▁vụ 171
▁ô 172
▁kinh 173
▁an 174
▁tác 175
y 176
▁cô 177
▁bảo 178
▁quý 179
▁giá 180
▁tỉnh 181
▁dụng 182
▁thứ 183
▁câu 184
▁vi 185
▁nghìn 186
▁quân 187
▁bảy 188
▁vẫn 189
▁chương 190
▁hôm 191
▁hoa 192
▁xuất 193
p 194
▁phương 195
▁kỳ 196
▁thi 197
▁sao 198
▁lúc 199
▁nếu 200
▁muốn 201
▁chưa 202
▁giới 203
▁xin 204
▁kết 205
▁triển 206
▁nữa 207
▁á 208
▁bản 209
▁khu 210
▁lượng 211
▁toàn 212
▁cảm 213
▁đường 214
▁bình 215
▁thường 216
▁lực 217
▁quá 218
▁báo 219
▁tâm 220
▁bằng 221
▁nhau 222
▁hỏi 223
▁mặt 224
▁lớn 225
▁chị 226
▁pháp 227
▁tổ 228
▁tập 229
▁địa 230
▁bà 231
▁cần 232
▁thị 233
▁liên 234
▁tiên 235
▁trọng 236
▁à 237
▁nhiên 238
▁văn 239
▁thống 240
▁án 241
▁xã 242
▁giải 243
▁dự 244
▁ban 245
▁tiền 246
▁tăng 247
▁năng 248
▁yêu 249
▁gian 250
▁cấp 251
▁chiến 252
▁ăn 253
▁thu 254
▁bắt 255
▁phòng 256
▁ạ 257
▁sống 258
▁tiếng 259
▁giáo 260
▁lần 261
▁thương 262
▁bên 263
▁sử 264
▁mẹ 265
▁nội 266
▁ngoài 267
▁tạo 268
▁bây 269
▁độ 270
▁quyết 271
▁r 272
▁lời 273
▁thôi 274
▁đúng 275
▁sĩ 276
▁m 277
▁hết 278
▁tổng 279
▁vấn 280
▁luôn 281
▁phố 282
▁v 283
▁minh 284
▁hóa 285
▁đình 286
nh 287
▁xe 288
▁đông 289
▁thanh 290
▁trở 291
▁đất 292
▁thức 293
▁tham 294
▁ai 295
▁đưa 296
▁truyền 297
▁ảnh 298
▁cầu 299
▁hoạt 300
▁tính 301
▁vừa 302
▁quả 303
▁trị 304
▁bao 305
▁tiêu 306
▁diễn 307
▁bệnh 308
▁vực 309
▁hà 310
▁chí 311
▁giao 312
▁gọi 313
▁tìm 314
▁hệ 315
▁đô 316
▁nông 317
▁thủ 318
▁tốt 319
▁sở 320
e 321
▁sáng 322
▁nghĩ 323
▁biển 324
▁tất 325
▁ngàn 326
▁chuyện 327
▁ca 328
▁tục 329
▁h 330
▁chất 331
▁đặc 332
▁c 333
▁đấy 334
▁doanh 335
▁hiệu 336
▁bố 337
▁tài 338
▁thích 339
▁đều 340
▁biệt 341
▁l 342
▁phẩm 343
▁cảnh 344
▁mọi 345
▁ờ 346
▁nơi 347
▁tiến 348
▁khó 349
▁triệu 350
▁n 351
▁gần 352
▁nguyên 353
▁gặp 354
▁đạo 355
▁ng 356
▁quy 357
▁thêm 358
▁xem 359
▁giúp 360
▁g 361
▁đánh 362
▁thân 363
▁khách 364
▁mạnh 365
▁du 366
▁đổi 367
▁vật 368
▁đâu 369
▁x 370
▁chế 371
▁mỗi 372
▁điện 373
▁tích 374
▁di 375
▁ấy 376
▁hoặc 377
▁cứ 378
▁kiến 379
▁nghị 380
▁trang 381
▁luật 382
▁mang 383
▁nguyễn 384
▁nghệ 385
▁tranh 386
▁trả 387
▁la 388
▁tay 389
▁bởi 390
▁loại 391
▁khai 392
▁sách 393
▁giống 394
▁huế 395
▁bắc 396
▁bất 397
▁xây 398
▁lịch 399
▁dịch 400
▁trẻ 401
▁cố 402
▁b 403
▁biểu 404
▁giả 405
▁bán 406
▁lập 407
▁giữa 408
▁ma 409
▁hồ 410
▁hoàn 411
▁tra 412
▁bỏ 413
▁d 414
▁nhỏ 415
▁bài 416
▁trưởng 417
▁ủy 418
▁tuy 419
▁máy 420
▁lăm 421
▁nhìn 422
▁chi 423
▁đoàn 424
▁ngay 425
▁dựng 426
▁chung 427
▁thái 428
▁ứng 429
▁khoảng 430
▁sát 431
▁vệ 432
▁đơn 433
▁chọn 434
▁mời 435
▁cây 436
▁thật 437
▁chơi 438
▁cá 439
▁cứu 440
ế 441
▁s 442
▁dùng 443
▁phi 444
▁chia 445
▁tử 446
▁đội 447
▁thiên 448
▁dạ 449
▁cộng 450
▁phạm 451
▁hộ 452
g 453
▁ngoại 454
▁đ 455
▁tuổi 456
▁vùng 457
▁hướng 458
▁phong 459
▁nhiệm 460
▁hãy 461
▁lợi 462
▁cuối 463
▁thiết 464
▁nghĩa 465
▁châu 466
▁phủ 467
▁thay 468
▁hòa 469
▁sức 470
▁nhật 471
▁hoàng 472
▁vô 473
▁tên 474
▁dẫn 475
▁giữ 476
▁hiểu 477
▁tuần 478
▁tr 479
▁chào 480
▁tàu 481
▁ch 482
▁từng 483
▁nh 484
▁kế 485
▁đẹp 486
▁biến 487
▁nghe 488
▁sư 489
▁gây 490
▁lấy 491
▁chuyển 492
▁hồi 493
▁mua 494
▁ngành 495
ch 496
h 497
▁phụ 498
▁nguồn 499
▁trí 500
▁thuộc 501
▁trợ 502
▁kiểm 503
▁bàn 504
▁phía 505
▁diện 506
▁lưu 507
▁huyện 508
▁tượng 509
▁khá 510
▁đời 511
▁nuôi 512
▁xử 513
▁khoa 514
▁cáo 515
▁lãnh 516
▁hải 517
▁chuyên 518
▁vui 519
▁dù 520
▁nhập 521
▁ty 522
▁tức 523
▁th 524
▁mất 525
▁phục 526
▁lo 527
▁nữ 528
▁bác 529
▁thuật 530
▁viện 531
▁t 532
á 533
ê 534
▁tỷ 535
▁thư 536
▁giảm 537
▁mục 538
▁đặt 539
▁mô 540
▁chú 541
▁tinh 542
▁đài 543
▁gà 544
▁đạt 545
ớ 546
▁mức 547
▁vũ 548
▁chồng 549
▁khí 550
▁chứ 551
▁kiện 552
▁tiết 553
▁dài 554
▁ít 555
▁chắc 556
▁chuẩn 557
▁càng 558
▁sa 559
▁so 560
▁tương 561
▁mạng 562
▁áp 563
▁chết 564
▁liệu 565
▁quản 566
▁xác 567
▁y 568
▁xuống 569
▁đa 570
▁thừa 571
▁chống 572
▁dương 573
▁nhớ 574
▁rõ 575
▁đảng 576
s 577
▁dành 578
▁lắm 579
▁mở 580
▁xa 581
▁ây 582
▁phí 583
▁khiến 584
▁na 585
▁luận 586
▁ký 587
▁dõi 588
▁phân 589
▁hoạch 590
▁thí 591
▁tây 592
▁tuyên 593
▁kể 594
▁hậu 595
▁sang 596
▁dễ 597
▁tấn 598
▁lòng 599
▁đồ 600
▁đáng 601
▁nổi 602
▁yếu 603
▁nhanh 604
▁triều 605
▁dung 606
▁hương 607
▁nghiệm 608
▁hưởng 609
▁tướng 610
▁chiếc 611
▁vọng 612
▁gi 613
▁cổ 614
▁trời 615
▁vợ 616
▁bé 617
▁nhóm 618
▁bay 619
▁mấy 620
▁đủ 621
▁trái 622
▁vận 623
▁sơn 624
▁thần 625
▁hạn 626
▁tưởng 627
▁ki 628
▁hữu 629
▁kỹ 630
▁chứng 631
▁dưới 632
▁đấu 633
▁ơi 634
▁môi 635
▁si 636
▁đức 637
▁khả 638
ố 639
▁trạng 640
▁thuận 641
▁lâu 642
▁ơn 643
▁đứng 644
▁trách 645
▁màu 646
▁thủy 647
▁linh 648
▁trò 649
▁danh 650
▁lô 651
▁khán 652
▁chấp 653
▁lớp 654
▁lễ 655
▁hát 656
▁mong 657
l 658
▁hạ 659
▁cụ 660
▁mắt 661
▁đóng 662
▁nạn 663
▁bước 664
▁ninh 665
ơ 666
▁gái 667
▁phản 668
▁tối 669
▁trực 670
▁tịch 671
▁miền 672
▁cửa 673
▁đôi 674
▁coi 675
▁sai 676
▁đảm 677
▁phó 678
▁chân 679
▁ph 680
▁khăn 681
▁hỗ 682
▁dục 683
▁huy 684
▁đảo 685
▁độc 686
▁vê 687
▁đàn 688
▁phóng 689
▁khởi 690
▁xong 691
▁trồng 692
▁xảy 693
▁lao 694
▁cung 695
▁chữ 696
▁chiều 697
▁ngọc 698
▁cạnh 699
à 700
▁kh 701
▁góp 702
▁sắc 703
▁đào 704
▁phổ 705
í 706
▁phẩy 707
▁cực 708
▁phá 709
▁đoạn 710
▁nghiên 711
▁tố 712
▁thưa 713
▁lai 714
▁cư 715
▁bí 716
▁mặc 717
▁lê 718
▁món 719
▁k 720
▁sẻ 721
▁thảo 722
▁u 723
▁buổi 724
▁li 725
▁thiếu 726
▁rộng 727
▁duy 728
▁trai 729
▁thiện 730
▁ri 731
▁vâng 732
▁nằm 733
▁nhằm 734
▁hơi 735
▁mừng 736
▁quay 737
▁nghề 738
▁viết 739
▁xi 740
▁nhạc 741
▁lan 742
▁p 743
▁phim 744
ò 745
▁cử 746
▁vòng 747
▁gửi 748
▁hy 749
▁xét 750
▁riêng 751
▁nha 752
▁chạy 753
▁thử 754
▁ti 755
▁mai 756
▁ngân 757
▁ghi 758
▁to 759
▁kỷ 760
▁đá 761
▁đăng 762
▁hông 763
▁khẩu 764
▁hồng 765
▁phú 766
▁nâng 767
▁biên 768
▁đáp 769
▁thầy 770
▁sông 771
▁cam 772
▁mùa 773
▁o 774
▁cha 775
▁chúc 776
▁lệ 777
▁cháu 778
▁tôn 779
▁chấm 780
▁cường 781
▁vương 782
▁trần 783
▁giám 784
▁quảng 785
▁chịu 786
▁lạ 787
▁long 788
▁bờ 789
▁đừng 790
▁lĩnh 791
▁lá 792
ã 793
▁âm 794
▁kêu 795
▁phép 796
▁thôn 797
▁mi 798
▁đầy 799
▁thăm 800
▁phúc 801
▁nga 802
▁chẳng 803
▁ga 804
▁thoại 805
ù 806
▁chỗ 807
d 808
▁gồm 809
▁sâu 810
▁lợn 811
▁kính 812
▁trận 813
▁vẻ 814
▁đẩy 815
▁vốn 816
▁kim 817
▁xuân 818
▁hiệp 819
▁thúc 820
▁môn 821
▁lộ 822
▁sợ 823
▁hại 824
▁mốt 825
▁ấn 826
r 827
en 828
▁lương 829
▁quen 830
▁sơ 831
▁tòa 832
▁xanh 833
▁đà 834
▁ni 835
▁nguy 836
▁xúc 837
▁ích 838
▁dầu 839
▁sân 840
▁âu 841
▁ví 842
▁mưa 843
▁dụ 844
▁chút 845
▁cà 846
▁ngôi 847
▁nhờ 848
▁rừng 849
▁thượng 850
▁vàng 851
▁vai 852
▁cải 853
▁thuốc 854
▁binh 855
▁đêm 856
▁cờ 857
▁mét 858
▁bi 859
▁trao 860
▁chờ 861
▁lựa 862
▁suy 863
▁tội 864
▁đón 865
▁ha 866
▁cán 867
▁khỏi 868
▁nhu 869
ư 870
▁thú 871
▁phù 872
▁nền 873
▁hiểm 874
▁quê 875
▁dạy 876
▁yên 877
▁tết 878
▁tô 879
▁thắng 880
▁i 881
▁tu 882
▁dậy 883
▁pi 884
▁quang 885
▁khỏe 886
▁mẫu 887
▁vài 888
▁ước 889
▁niên 890
▁tê 891
▁da 892
▁lạc 893
▁căn 894
▁trà 895
▁kéo 896
▁niệm 897
▁sớm 898
▁hạt 899
▁kia 900
▁uống 901
▁mã 902
▁ngồi 903
▁kiếm 904
▁ánh 905
▁chuyến 906
▁trương 907
▁nặng 908
▁mê 909
▁thẳng 910
▁in 911
▁may 912
▁nghi 913
ì 914
▁chăm 915
▁tín 916
▁hầu 917
▁tuyển 918
▁ngại 919
▁buộc 920
▁thiệu 921
▁ổn 922
▁gốc 923
▁chu 924
ă 925
▁sắp 926
▁vượt 927
▁mối 928
▁mại 929
▁xuyên 930
▁nhiêu 931
▁tiểu 932
▁dòng 933
▁bày 934
▁đau 935
▁tộc 936
▁e 937
▁thưởng 938
▁tỏ 939
▁bức 940
▁lâm 941
▁rơi 942
▁chắn 943
▁phút 944
▁nghèo 945
▁soát 946
▁bánh 947
▁hẹn 948
▁vân 949
▁luyện 950
▁nghiêm 951
▁nóng 952
▁phối 953
▁đế 954
▁tầm 955
▁qu 956
▁sữa 957
▁đứa 958
▁nhá 959
▁ủng 960
▁lẽ 961
▁tả 962
▁cập 963
▁dấu 964
▁hút 965
▁ép 966
▁tuyến 967
▁toán 968
on 969
▁nghỉ 970
▁lệnh 971
▁giang 972
▁sẵn 973
▁thịt 974
▁hả 975
▁tải 976
▁cầm 977
▁tai 978
▁trì 979
▁kiểu 980
▁bổ 981
▁bóng 982
▁giết 983
▁tù 984
▁hàn 985
▁giấy 986
▁họp 987
▁líp 988
▁thơ 989
▁kê 990
▁suất 991
▁đích 992
▁tặng 993
▁ơ 994
▁kích 995
▁áo 996
▁rô 997
▁song 998
▁núi 999
▁tiện 1000
ụ 1001
▁sứ 1002
▁giác 1003
▁tránh 1004
▁dịp 1005
▁niềm 1006
▁cục 1007
▁tạm 1008
▁cháy 1009
▁nối 1010
▁bang 1011
▁đọc 1012
▁hùng 1013
▁thiệt 1014
▁chiếm 1015
▁mùng 1016
▁dư 1017
▁quán 1018
▁mơ 1019
▁thất 1020
▁bầu 1021
▁quanh 1022
▁tân 1023
▁tuyệt 1024
▁thấp 1025
▁nhiệt 1026
▁đổ 1027
▁hạnh 1028
▁tường 1029
▁tái 1030
▁kênh 1031
▁tốc 1032
▁mắc 1033
▁trắng 1034
▁đỏ 1035
▁rút 1036
▁xếp 1037
▁xê 1038
▁tắc 1039
▁ét 1040
▁lẻ 1041
▁bó 1042
▁bê 1043
▁mày 1044
▁tơ 1045
▁phan 1046
ô 1047
▁sóng 1048
▁loài 1049
ệ 1050
▁thác 1051
▁buồn 1052
▁lắng 1053
▁biện 1054
▁nỗ 1055
▁làng 1056
▁chữa 1057
▁chợ 1058
▁ngủ 1059
▁sờ 1060
▁chục 1061
▁ngăn 1062
▁phê 1063
▁khắc 1064
▁ngữ 1065
▁gắng 1066
▁cười 1067
▁nhé 1068
▁ngư 1069
▁cánh 1070
▁khám 1071
▁đốc 1072
▁loan 1073
▁pin 1074
▁giai 1075
▁sạch 1076
▁già 1077
▁trừ 1078
▁thụ 1079
▁cận 1080
▁quà 1081
▁tim 1082
▁dưỡng 1083
▁quần 1084
▁ương 1085
▁đòi 1086
▁vua 1087
▁nhiễm 1088
▁sóc 1089
▁tờ 1090
▁đợi 1091
k 1092
▁võ 1093
er 1094
▁mật 1095
▁trải 1096
▁bữa 1097
▁vững 1098
▁khối 1099
▁lỗi 1100
▁hi 1101
▁đê 1102
▁vinh 1103
▁gu 1104
ỉ 1105
▁nét 1106
▁dạng 1107
▁giây 1108
▁gió 1109
▁nhắc 1110
▁thậm 1111
▁xấu 1112
▁siêu 1113
▁trào 1114
▁đen 1115
▁bè 1116
▁khẳng 1117
▁tầng 1118
è 1119
▁nguyện 1120
▁phiên 1121
▁trưa 1122
▁ro 1123
▁tri 1124
▁mái 1125
▁quên 1126
▁khắp 1127
▁gắn 1128
▁nô 1129
▁sàng 1130
▁nè 1131
ề 1132
▁bá 1133
▁thuế 1134
b 1135
▁cậu 1136
▁ho 1137
▁ngôn 1138
▁đem 1139
▁chỉnh 1140
▁dần 1141
▁máu 1142
ự 1143
▁ke 1144
▁va 1145
▁trụ 1146
▁khủng 1147
▁xưa 1148
▁khúc 1149
▁trại 1150
▁tồn 1151
▁gam 1152
▁giành 1153
▁lu 1154
▁nắng 1155
▁phạt 1156
▁tao 1157
▁khô 1158
▁dũng 1159
▁lục 1160
▁ràng 1161
▁kí 1162
▁hằng 1163
▁khảo 1164
▁ngờ 1165
▁pha 1166
▁cắt 1167
▁kịp 1168
▁nhẹ 1169
▁can 1170
▁cát 1171
▁chăn 1172
▁sửa 1173
▁khoản 1174
▁cân 1175
▁cặp 1176
▁ưu 1177
ở 1178
▁ru 1179
▁bọn 1180
▁suốt 1181
▁ừ 1182
▁lửa 1183
▁đỡ 1184
▁lông 1185
▁xung 1186
▁tận 1187
▁cưới 1188
▁lái 1189
▁chó 1190
ể 1191
▁thao 1192
▁thải 1193
▁thận 1194
▁tuấn 1195
▁mèo 1196
▁trú 1197
ỗ 1198
▁giản 1199
▁huấn 1200
▁tông 1201
▁ly 1202
▁khổ 1203
▁mắn 1204
▁thoát 1205
w 1206
▁thỏa 1207
▁liệt 1208
▁oa 1209
▁nhấn 1210
▁giỏi 1211
▁đỉnh 1212
▁rác 1213
▁cũ 1214
▁căng 1215
▁pa 1216
▁en 1217
▁nẵng 1218
▁thách 1219
▁tụ 1220
▁bơ 1221
▁thổ 1222
▁khuyến 1223
▁chặt 1224
▁tĩnh 1225
▁kiên 1226
▁tơn 1227
▁trích 1228
▁kho 1229
▁hào 1230
▁ngang 1231
▁bật 1232
▁xu 1233
▁nắm 1234
▁chùa 1235
▁ngũ 1236
▁lộc 1237
▁hôn 1238
▁nỗi 1239
ừ 1240
▁dàng 1241
▁lũ 1242
▁ngược 1243
▁họa 1244
▁chóng 1245
▁liền 1246
▁com 1247
▁thù 1248
▁chặn 1249
▁mãi 1250
▁sài 1251
▁điền 1252
▁bãi 1253
▁đe 1254
▁cấm 1255
▁bão 1256
▁cựu 1257
▁trưng 1258
ị 1259
▁đoán 1260
▁dô 1261
▁thuyết 1262
▁hiền 1263
▁hoài 1264
▁truy 1265
▁bào 1266
▁phán 1267
▁trông 1268
▁tui 1269
▁video 1270
▁chiếu 1271
▁gòn 1272
▁mẽ 1273
▁tùy 1274
▁miễn 1275
▁hãng 1276
▁buôn 1277
▁nêu 1278
õ 1279
▁khánh 1280
▁lẫn 1281
▁phật 1282
▁trấn 1283
▁chụp 1284
▁đột 1285
ợ 1286
▁khóa 1287
▁dị 1288
▁dọa 1289
▁ngắn 1290
▁mát 1291
▁hấp 1292
▁nấu 1293
▁thuyền 1294
▁vẽ 1295
▁dâu 1296
▁bạch 1297
▁đương 1298
▁đạn 1299
▁dừng 1300
▁khóc 1301
▁ngô 1302
▁lược 1303
▁phận 1304
▁tí 1305
▁hưng 1306
▁tỉ 1307
▁thẩm 1308
▁goa 1309
▁kẻ 1310
▁xô 1311
▁thờ 1312
▁bại 1313
▁lúa 1314
▁quận 1315
▁vườn 1316
▁thai 1317
▁nhi 1318
▁hạng 1319
▁ngoái 1320
▁huyết 1321
▁bớt 1322
▁mộ 1323
▁dựa 1324
▁cu 1325
▁chả 1326
▁mạc 1327
▁kém 1328
▁hài 1329
▁hứa 1330
▁mưu 1331
▁đo 1332
▁bền 1333
▁sung 1334
▁bắn 1335
▁nhắn 1336
▁tạp 1337
▁cuốn 1338
▁su 1339
▁cấu 1340
▁dây 1341
▁dứt 1342
▁băng 1343
▁dữ 1344
▁giảng 1345
▁nổ 1346
▁hư 1347
v 1348
▁búc 1349
▁thập 1350
▁thọ 1351
▁lây 1352
▁nợ 1353
▁nho 1354
▁trúc 1355
▁thuê 1356
le 1357
▁hô 1358
▁phu 1359
▁hộp 1360
▁túy 1361
▁chứa 1362
▁vời 1363
▁trùng 1364
▁chàng 1365
▁hiến 1366
▁pu 1367
▁bạo 1368
▁héc 1369
▁hủy 1370
▁loạn 1371
▁phiếu 1372
▁tươi 1373
▁tụi 1374
▁phây 1375
▁tiếc 1376
▁chở 1377
▁bồ 1378
▁loạt 1379
▁phấn 1380
▁đợt 1381
▁nàng 1382
▁đỗ 1383
▁lư 1384
▁quỹ 1385
▁vong 1386
▁ấm 1387
▁tha 1388
▁đàm 1389
▁xá 1390
▁trống 1391
▁xinh 1392
▁vay 1393
▁hè 1394
▁trục 1395
▁cơn 1396
▁uy 1397
▁tôm 1398
▁tần 1399
▁rời 1400
▁thằng 1401
▁tú 1402
▁cám 1403
▁lạnh 1404
▁má 1405
▁bạc 1406
▁chậm 1407
▁nửa 1408
▁dám 1409
▁ngon 1410
▁rau 1411
▁giàu 1412
▁rượu 1413
▁trứng 1414
▁ung 1415
▁há 1416
ũ 1417
▁súng 1418
▁đuổi 1419
▁vĩnh 1420
▁bò 1421
▁gấp 1422
▁nê 1423
▁tá 1424
▁khấu 1425
▁đèn 1426
▁bu 1427
▁gờ 1428
▁kháng 1429
▁đua 1430
▁dã 1431
ỏ 1432
▁giam 1433
▁tấm 1434
▁lưới 1435
▁huynh 1436
ổ 1437
▁hán 1438
▁xứ 1439
ễ 1440
▁ngọt 1441
▁sen 1442
▁phái 1443
▁co 1444
▁gương 1445
▁huyền 1446
▁ngừng 1447
▁lối 1448
▁ống 1449
▁canh 1450
▁tệ 1451
▁bo 1452
▁bối 1453
▁ngập 1454
▁lãi 1455
▁non 1456
▁my 1457
▁bảng 1458
▁gạo 1459
▁ân 1460
▁thả 1461
▁hổng 1462
▁hẳn 1463
▁viễn 1464
▁đám 1465
▁thoải 1466
▁cãi 1467
▁khích 1468
▁hồn 1469
▁tán 1470
▁tóc 1471
▁tị 1472
▁hề 1473
▁cơm 1474
▁bô 1475
▁bậc 1476
▁kịch 1477
▁đẳng 1478
▁chai 1479
▁ne 1480
▁tật 1481
▁xâm 1482
▁lính 1483
▁gỗ 1484
▁vang 1485
▁đền 1486
▁giận 1487
▁nộp 1488
▁trăng 1489
▁bù 1490
▁góc 1491
▁xương 1492
▁mệt 1493
▁ê 1494
▁cai 1495
▁che 1496
▁gói 1497
▁tiềm 1498
▁điệp 1499
▁đam 1500
▁dường 1501
▁lượt 1502
▁đáo 1503
▁tùng 1504
▁giọng 1505
▁nhảy 1506
▁trạm 1507
▁ẩn 1508
▁hiếm 1509
▁duyên 1510
▁giáp 1511
▁phô 1512
▁pê 1513
▁vá 1514
▁thổi 1515
▁tia 1516
▁mạch 1517
▁gơ 1518
▁nhắm 1519
▁dáng 1520
▁mến 1521
▁túc 1522
▁hoang 1523
▁niu 1524
ẽ 1525
▁kì 1526
▁phường 1527
▁tuân 1528
▁thiểu 1529
▁đẻ 1530
▁f 1531
▁khen 1532
▁ngã 1533
▁phe 1534
ẹ 1535
▁trịnh 1536
▁hứng 1537
▁rối 1538
▁đai 1539
▁ôi 1540
ra 1541
▁đập 1542
▁cướp 1543
▁chảy 1544
▁be 1545
▁thang 1546
▁bồi 1547
x 1548
or 1549
▁trốn 1550
▁phức 1551
▁trôi 1552
▁khuôn 1553
▁hò 1554
▁dinh 1555
▁chúa 1556
▁quỳnh 1557
▁trật 1558
▁thước 1559
▁cảng 1560
▁quái 1561
▁tỏa 1562
▁lặng 1563
▁thăng 1564
▁lỗ 1565
▁me 1566
▁zalo 1567
▁duyệt 1568
▁lãng 1569
▁lưng 1570
▁mỏ 1571
▁đồn 1572
▁re 1573
▁sỹ 1574
▁thánh 1575
▁mềm 1576
▁chối 1577
▁bến 1578
▁rẻ 1579
▁mùi 1580
ẻ 1581
▁phỏng 1582
▁hiếu 1583
▁xíu 1584
▁nhãn 1585
▁lăng 1586
ĩ 1587
▁địch 1588
▁nhũng 1589
▁răng 1590
▁pho 1591
▁lát 1592
la 1593
▁đan 1594
▁lang 1595
▁khẩn 1596
▁trầm 1597
▁ốc 1598
▁bèn 1599
▁po 1600
▁túi 1601
▁dao 1602
▁bát 1603
▁man 1604
▁lân 1605
▁rét 1606
▁vỏ 1607
▁túp 1608
▁tho 1609
▁hổ 1610
▁sắt 1611
▁miệng 1612
▁diệt 1613
▁bề 1614
▁chấn 1615
▁mây 1616
▁đậu 1617
▁thiệp 1618
▁não 1619
▁lin 1620
▁đố 1621
▁cương 1622
▁nhở 1623
▁cứng 1624
▁hoảng 1625
▁lọc 1626
▁kiều 1627
▁đinh 1628
▁tống 1629
▁thảm 1630
▁diu 1631
▁pháo 1632
▁mo 1633
▁se 1634
▁tháo 1635
▁khiển 1636
▁tàng 1637
z 1638
▁ngạc 1639
▁trữ 1640
▁cỏ 1641
▁huống 1642
▁đắc 1643
▁nãy 1644
▁tháp 1645
▁lãm 1646
▁thua 1647
▁đu 1648
▁bom 1649
▁thơm 1650
▁tàn 1651
▁dọn 1652
▁khuyên 1653
▁hỏa 1654
▁khơi 1655
▁leo 1656
▁thẻ 1657
▁đốt 1658
▁chim 1659
▁sê 1660
▁te 1661
▁tràn 1662
▁khung 1663
▁ẩm 1664
▁dày 1665
▁heo 1666
▁ghế 1667
▁nụ 1668
▁tốn 1669
▁bia 1670
▁iu 1671
▁đạp 1672
▁viêm 1673
▁lí 1674
▁giấc 1675
▁giật 1676
▁ngừa 1677
▁điển 1678
▁dâng 1679
▁rào 1680
ước 1681
▁cẩn 1682
▁lắp 1683
▁ủa 1684
▁kiệm 1685
▁chư 1686
▁dĩ 1687
▁ven 1688
▁khổng 1689
▁say 1690
▁vuông 1691
▁xăng 1692
▁hung 1693
▁chè 1694
▁lim 1695
▁bông 1696
ý 1697
▁mảnh 1698
▁ngưỡng 1699
▁xóa 1700
▁sánh 1701
▁mũi 1702
▁no 1703
▁tảng 1704
▁tắm 1705
▁mỏi 1706
▁bách 1707
▁chạm 1708
▁dẹp 1709
▁chừng 1710
▁tre 1711
▁phẫu 1712
▁rưỡi 1713
▁dược 1714
▁rà 1715
▁hảo 1716
▁mực 1717
▁nghiện 1718
▁tào 1719
▁điệu 1720
▁vơ 1721
▁gan 1722
▁dời 1723
▁mầm 1724
▁ngụy 1725
▁tiệm 1726
▁khang 1727
▁kín 1728
▁nở 1729
▁thùng 1730
▁bổng 1731
▁vươn 1732
▁ruộng 1733
▁rắc 1734
▁đằng 1735
▁bụng 1736
▁lay 1737
▁bùi 1738
▁cửu 1739
f 1740
▁thạch 1741
▁đặng 1742
▁ngực 1743
▁tiêm 1744
▁đệ 1745
▁sôi 1746
▁bùng 1747
▁trúng 1748
▁bám 1749
▁bận 1750
▁lầm 1751
▁móc 1752
▁quét 1753
▁sạn 1754
▁gánh 1755
▁bếp 1756
▁vết 1757
▁sổ 1758
▁im 1759
▁lít 1760
▁cột 1761
▁ngầm 1762
▁sót 1763
▁tắt 1764
▁mệnh 1765
▁nguyệt 1766
▁gợi 1767
▁hối 1768
▁quế 1769
▁củng 1770
▁múa 1771
▁úc 1772
▁đậm 1773
▁đắt 1774
▁kèm 1775
▁lừa 1776
▁lốc 1777
▁vĩ 1778
▁phước 1779
▁chẽ 1780
▁giấu 1781
▁huỳnh 1782
▁ngón 1783
▁nhưỡng 1784
▁dò 1785
▁trinh 1786
▁cổng 1787
▁chinh 1788
▁dọc 1789
▁gọn 1790
▁vây 1791
▁đựng 1792
▁lão 1793
▁sừn 1794
▁men 1795
▁thuẫn 1796
▁trân 1797
▁đầm 1798
▁chốt 1799
▁sàn 1800
▁nhịp 1801
▁thở 1802
▁chôn 1803
ro 1804
▁khâu 1805
▁lật 1806
▁đâm 1807
▁nhựa 1808
▁chiêu 1809
▁lơ 1810
▁chướng 1811
▁miếng 1812
▁gô 1813
▁đeo 1814
▁cất 1815
▁nhuận 1816
▁đoạt 1817
▁nhăm 1818
▁yến 1819
▁nhĩ 1820
▁dơ 1821
▁nhì 1822
▁bút 1823
▁isaac 1824
▁rủi 1825
▁rửa 1826
▁thói 1827
▁kiệt 1828
▁táo 1829
▁xứng 1830
▁bấy 1831
▁bẩy 1832
▁cấy 1833
▁hắn 1834
▁lóc 1835
▁hiển 1836
▁khanh 1837
▁bì 1838
▁kg 1839
▁nề 1840
▁mù 1841
▁rộn 1842
▁cắp 1843
▁lấp 1844
▁ngọn 1845
▁meo 1846
▁muộn 1847
▁ảo 1848
▁tiễn 1849
▁ghê 1850
▁chánh 1851
▁xoay 1852
▁tuệ 1853
▁mộng 1854
▁mừn 1855
j 1856
▁cẩm 1857
▁khéo 1858
▁mặn 1859
▁ngắm 1860
▁ruột 1861
▁thắc 1862
▁vải 1863
▁hỏng 1864
▁giêng 1865
▁săn 1866
▁voi 1867
▁điên 1868
▁nhị 1869
▁mổ 1870
▁bỉ 1871
▁mì 1872
▁sô 1873
▁nhạy 1874
▁nốt 1875
▁nát 1876
▁ghép 1877
▁ghét 1878
▁treo 1879
▁dở 1880
▁kìa 1881
▁thúy 1882
▁trọn 1883
▁bấm 1884
▁tạng 1885
▁vướng 1886
▁đuôi 1887
▁chuỗi 1888
▁rèn 1889
▁dợ 1890
▁tò 1891
▁lở 1892
▁thụy 1893
▁chậu 1894
▁lét 1895
▁kỉ 1896
▁luân 1897
▁vắng 1898
▁tề 1899
▁chăng 1900
▁nồng 1901
▁rắn 1902
▁thuần 1903
▁vất 1904
▁vầng 1905
▁vội 1906
▁đắp 1907
▁lò 1908
ỷ 1909
▁cúng 1910
▁khuyết 1911
▁khép 1912
▁lắc 1913
▁rồng 1914
▁sắm 1915
▁liêu 1916
▁mạn 1917
▁dồi 1918
▁mắm 1919
▁rải 1920
▁trộm 1921
▁ngựa 1922
▁bụi 1923
▁thợ 1924
▁chuồng 1925
▁lồng 1926
▁thép 1927
▁vạn 1928
▁gũi 1929
▁mít 1930
▁rớt 1931
▁dì 1932
▁mâu 1933
▁nút 1934
▁trâu 1935
▁xóm 1936
▁thoái 1937
▁khoe 1938
▁mạo 1939
▁diệu 1940
▁huệ 1941
▁lùi 1942
▁hãi 1943
▁roai 1944
▁khiếu 1945
▁chặng 1946
▁thề 1947
▁lề 1948
▁bưởi 1949
▁mọc 1950
▁trắc 1951
▁lụt 1952
▁mẻ 1953
▁dề 1954
▁cạn 1955
▁lận 1956
▁thầu 1957
▁đắn 1958
▁thoáng 1959
▁đùa 1960
▁đoan 1961
▁chẩn 1962
▁giọt 1963
▁nhầm 1964
▁đúc 1965
▁hẹp 1966
▁thỉnh 1967
▁dính 1968
ỳ 1969
q 1970
' 1971
ữ 1972
đ 1973
ỵ 1974
ẵ 1975
ẳ 1976
ỡ 1977
ẫ 1978
ẩ 1979
é 1980
ằ 1981
ử 1982
ặ 1983
ắ 1984
ồ 1985
ứ 1986
ọ 1987
ú 1988
ầ 1989
ậ 1990
ủ 1991
ấ 1992
â 1993
ả 1994
ờ 1995
ộ 1996
ạ 1997
ó 1998
ỹ 1999
